010FF011
1EF41042
1F0BFFBD
1EF42F3E
1DF00FCF
1DF800B5
00042F88
0303F039
0307F040
1D0BE044
070FD006
1EF3F0C2
010C0F8C
00F41F77
01080FC1
18F3E13D
051C2FFD
040BCFC9
1F041013
000C003D
1EFFF003
09244002
01080005
0A1C0F42
1F040018
1D00104D
0A17EFBF
020BF007
1FFBFFF6
06039077
07042F87
02001008
1FFC3F8C
010C1FCA
010BE00A
1F07F037
1F03DFF8
1CF8103D
03080FD0
030BF034
06080000
19F3900B
1FFC4080
1EFC207B
02041FC1
050C1007
1F080FCF
00040F45
1DE80083
1F001040
01FBEFF3
1DFFF00C
1FF3F009
03080001
0407F004
0423FFF7
050C0F81
02041FC9
021410C4
1FF8000A
1DF800BF
00FC0048
0100004D
0814307D
000BF00D
1BEB5EC9
1F00203D
1FEF9F07
1CF80FCB
1DF3D07C
1FFC10BB
020430F8
1E088FC1
1BFC1002
05081088
1DF02082
0003EFCF
1CEBBE81
1BF42001
1EFFE001
03100F84
081BBFC7
1DFBE015
1F0C003D
1FFC1FBC
0204AFF9
00000FFC
05040FC6
1DFC1016
1E04000D
0303CF4B
0103F007
1BEFF0BD
1AEBB13D
01FFEFD1
1FF4903D
1FF7FFC9
03101FC4
03041041
1FFBF038
1DFBB03A
1CF8003A
0000000A
03041077
1FF800C0
1A003008
1BF41FCC
1FF7F043
1FFBE084
0A1FEFCF
03082FC4
1E03DF8A
1DF85FD2
00FFF00E
1CF3F0F4
1D07FFC2
01F81FCD
00045FBC
0400107B
0310003D
03040007
00002007
02081088
1CF3FFF5
00FFDF06
00F7C00C
03FFE011
010C4FC2
000C0F8E
1AFB2F52
02101FFE
06FFCFCD
020C100C
1BF7D004
00FBF033
010420BC
19EFB043
18E830FB
00FC008A
1F03E047
1FFBEFD0
1DEBF008
1D001FC7
1BF3A004
03081007
1BF7704F
1EFC000A
1F080FC5
01080002
1EF7FF44
00040FC3
0507D00D
1D001FD4
1E000FD0
01FFFFD8
1EF44046
1AE480BF
1EF09FFD
00F7E014
00F88006
16D3CE8E
00FFE00E
01FC207D
1DF7C075
00082FF6
1DF41FF9
1FF44F83
1FF44076
1DF0107E
16EECF54
19F7E08C
03082FC5
1DFBCFCB
0617CFD6
0618303C
1D03DFD3
031C0008
0103F04C
1CEBC041
1F07FFC7
1DF7CF4A
00044FF7
0204B0C2
01040004
01FBF005
03042003
020BF046
1CF40FF9
1FFBEFCA
1DF04000
0608104A
1EFF9047
1F000FD4
1DFF9018
04082083
06FFFFD3
1F0F9011
1CF7B086
1FF40039
1E03EFFC
02044FC2
18E3EFBF
1DF80007
1F082045
01FBE049
1CF7B00C
01043FCD
1DF7B00A
1F042042
1BF3608A
1DF81FC1
1F07F007
01041044
1EFFD00C
1F040006
04FFD002
1E040F94
1F000058
0003E012
00004006
1BF46000
18E00007
01F8208D
1FF80FCF
1CEFCFD1
1E000008
1EF43001
00FC1032
1EFC2000
1BF3FFFD
02085FBC
1FF82FBB
1E07F03D
1D07600E
1EF80F48
06081FD0
1DF7CFC8
080FB095
010C6F85
1B03B053
080FFFCE
01FC0042
1FFFD004
00040003
1F03FF89
1DF7C000
020C4FC0
1FFC0005
0607E049
1CF48F40
00041006
1DF81034
1FFFE010
1EF06FFD
0604003F
1FF7B088
0110109B
1DFB3152
020BF049
08FFF052
1B03EF4B
01FFE0BC
00FC1035
19F3D003
1CF7AF87
1EF82003
02FC304A
1E001FC7
00FBF044
1EFBC08A
1F04200A
1CF7B010
0008203B
17E3C0BD
1D002001
1F03F046
040FEFC3
0003EFD5
0007F002
03FFA041
1E080057
01080055
0107E08B
060C0FC7
030FCFC1
00041003
16D3E0C9
050C0FD0
1FFFD057
0413E005
050430FF
00F82032
1CF7D03E
00F850BA
1BEC6F40
1DF7FF7B
1DF46FC1
1BFF3146
19E85008
03040FD4
1EF3E004
071FD00F
02083004
1AF3D04F
1E07EFD1
00F3F102
0507E048
1F040004
0204204C
1F001FFE
0108207E
02040007
01EC108D
18E87F42
1F003042
1DF82FF3
00FFE04A
00F81009
01003F74
02084FC8
02140056
000342CF
00080049
08081051
1EFBD00C
18E80F7A
01FBF035
1BF3BFC4
080C207F
01040FC0
1EFC1046
1DF80FC8
1E0010C0
01FFC103
1F000FC9
1F03E08D
00042FFB
1CFC4FB6
1CFFE003
1F0BE007
09181047
0008000F
01041001
08103037
1D03F09C
000C1FD2
050BB047
0713E003
03FC0FF8
060C1042
1FF06F7F
05140057
1F000056
08181082
040FC000
01000FBA
1F002079
020BC001
1EF00FC5
1FF80FFB
1F040FC0
01FC0003
19E0408C
030C0011
19EC3007
000FF08E
0303F03F
1CEBEF05
1DFC1F8F
1AEC5F82
0A1410C9
1EFC0FC7
03100005
0407EF40
0717F07A
0214004A
1DF8000D
1BF0410D
1F03FFC1
1CF3F0B7
010BB0C6
1DF7EFD1
1FF83FF6
00084041
0007E1BF
1DF03FC3
000010C0
02003FC1
1EF81089
1EF3FF77
1EFC10C2
0410113C
0007FFC0
0107F001
030BE005
00F010BA
00080FD3
1EF3DEFB
0008007A
010FBE46
02140074
0003CFCA
00FFF00E
02081E05
1BEBF0F8
0408003F
1FFC0111
04081F87
1EFFFFC0
001BF03C
090C0E03
0107F042
00FC103B
1DF41038
0108203F
02FC0089
1FFC1FC4
01082FCD
1E000FCF
1DFFFFC5
0103F076
1E0010F4
00081086
020000B6
00F41106
1CEFCF86
1F042082
1DF400F6
1FF80F7F
1FFC3005
1EFC2FCF
020BDF01
1F083FFA
0303F040
1FF7BFB3
1FFBE100
0003F040
01FC0038
0100203F
1FFFFF85
02081FC0
1DF7FFFE
020C202F
1EF80049
00FFFF3E
0103E007
1EF8100D
02041003
1FFC20BE
1FFBBECF
1EF400C3
02FFEF8A
04242047
1DFBD03C
00FC00B3
030BC084
19F3B007
1CF010C1
0200200A
1EFFB03D
1FFFFFCB
1FF7BF82
1CEC2178
1AF7CE91
010C0FFD
1F03DFCC
1FFC0008
00040FC7
01EC113E
1EFC2FFC
1FF8010D
01000011
1F000079
1F0BFFC4
0303FF0A
1DF01005
1EF4107E
1CF3EFFA
01041FCB
01F83FFD
00F41082
020BFFCC
0103FF87
01001FC4
1EF40034
1DF830B3
0307F048
1DF04038
1DF41046
1FF7EF08
1CFBDFD0
1BE00084
0107FF80
041BEFD2
00042004
00040F87
0413FEC6
00FC1FC9
1C03F071
00FC00BF
1EF7CF86
1EF83078
00FFF041
1F03FFCC
01FC000B
1FFBFFFE
1FFC00B5
1CEC10B9
1FFC0F86
01FFFFC7
01FC1046
1F0C1FC2
1E03F03F
1EFFEFD3
010C3083
05FBDFD0
071FFFCC
1E03F03F
1E000033
01041FC4
1AEF8049
19E040FD
1CF7CF8D
1EFC103F
00F7E00E
00F7DF8B
1AE430FC
1F03E012
0104103E
1FFBD010
1AE810BE
1F040FD1
0104107A
1FF7CF47
1EF4100C
0003FFCE
00101FBB
1F040FC8
0103FFD1
18E01082
1BF3D0FF
18EFBF7C
00F7E00D
1EFC6079
1FF03041
1E00000E
1F03F004
1BFB9FC4
1D03B07F
1BF00FF4
01002FFE
1BE82FF3
03F7D001
1EFFDFD0
1FF7F007
1D001FC1
030BFFC6
0207D01D
1BF0207C
1D03EFCF
09201F85
0304100B
1DF7DFBC
01000FBF
1BF7DF85
000030F4
01F45FC2
1DFFE011
00FC000A
1FFFE040
1DFC103D
1F03FFF4
1FFBFFC7
0003EFC0
04040087
1F03F009
1E03F03F
1FFFE018
00081F86
04FBF012
0513E00C
1DFFF002
020BE036
1FF42008
1DF7FFC5
1DE42FBB
1BE7E00D
1F07F0BD
1FF3E0C6
00F7FFC9
1E00107A
1EFBF055
02FC2079
1DF39049
17D8403B
1F000FCB
02082FBA
1FFBEFD3
1EF7FF8F
01FFF048
1F13FFBE
1F04004E
0003F016
1EFFF004
1FFBEFFD
1F03FFBE
1BE7B148
01043FFC
1EF7FF8A
1DF7E0CE
1BF43001
1FFFF004
1CF3E07B
1FF7EF76
1EF40FBB
1BE41F7D
1EFB907B
1FFFE00E
1EFB9043
1F004009
1EFBC00A
00FFF059
1DFC6FFC
1DFFF046
04101004
1FF8004B
0103D001
0200003E
1E07EFC6
040C1073
1FFC0FC0
1DFBF053
00F7D04A
1DF40FBD
01042FBE
1E03FF31
1FFFFFCE
1DF7EF42
00FC6040
1EF82081
000BF07F
1F03D055
00042FCA
03FC0052
03100043
1DF7C03A
1CF41F31
01F4100A
1DFFEF46
1CF01006
1FF7EFCC
010C0000
02FFD001
00FFF04B
1DF410BA
1EFFF054
1CF43F3B
01FBE086
1CEC403A
1E000089
01080F7C
00FFF014
1EFFFFCD
01FFE0C7
021FEF75
00080048
030BF090
0103FFC3
04044037
020C2040
1FFC30FE
03080002
1EFBF051
1DF4000C
1E005FC8
1CFBE004
1E03E000
00080037
1DF41F81
1EFBEFFF
01FC40C3
00FBB0CF
00040048
0004200B
1EF80044
020BF091
01002001
1E03F048
1F0FC0C3
00FFF0C7
010C0046
000000C3
03140082
06080075
1EF8603F
00001015
1EF41043
19EFF07B
1DF80FB7
1FFC2EB6
1F040009
1FF80F85
03041FB6
1F001000
00181F7D
1F0FB115
020BFFCB
0503F052
00FFF049
1EEFEF75
1CF3FFF2
1CF3FF09
1FFC1040
00FBF004
0107D007
1CF7FFC2
1E0C0106
1EF7E0CC
1EF40FFF
01040051
01F81F78
1FF3D140
1F03F040
1FFFF045
05142F3D
02040052
0003FF90
0207D17B
1DFC0FB3
03201081
0B27B1CA
0303EFC2
04042FFA
02081082
02FC0136
0207F087
1EFFF054
01081005
0207E08A
1DFFF087
01040079
1FFBBFBF
1DF41F85
1FF3E046
1F040EFE
01FFF049
1BE42F86
03101FC9
1BEC0042
0108004C
0003FF80
1CF41184
00042045
01FBD03D
020BF008
1DE810BE
0520303C
01040FB8
0203E03B
011410D2
1DF80007
19E8108B
19E7CFFA
1DF02F39
010C0006
1FFBF00F
1EFC0FF8
04103FFF
1EEFD17A
1CF41003
1EF061B2
021BF04B
00FC1F87
0103FFF2
1F07E083
020C00F5
030BEFC4
00FC1043
1F040005
02000D36
1EFBF00D
1EFBCFFF
050C0131
1F080DC3
1E07F0B2
0203FFCE
0003DF8D
1F000C83
1CEFD07A
00F8103F
17D3E480
01040FC5
1FFFF080
1F000EBF
03041F84
0007F07F
0100107F
01FC0FF2
02040000
01FC100F
1BF7F008
1FFFFF49
1DF7FFC7
01080042
1FF3F075
010C20F7
1FFBF041
1EF7E037
03000FFD
1EFBF006
1CF80004
1EFC0038
1FFC007C
041BFF45
00F82006
01080DC9
1CF7FFFC
1FF40001
02FF9FF8
00F81078
02101005
1FFBF0B4
1EFFF03C
1F13CFFD
1DFC1FC5
1DFBFFC0
011000F9
1FFBE089
01FFFEBE
1FF40001
1DF80007
05081000
17DC20FD
00F41E93
00081F75
0303F00A
06181F85
03081078
1CF3E0BA
03FC2FFD
1D03DFC9
1CF010FD
01FC0FC9
0107EFB6
00F80FCB
0213E07D
1CF00077
1F040F46
00042FFA
00FFFFCF
01000F87
1EFC0E46
00FBFFFD
1FFC0FFE
19D0237A
0000000E
1CFBE0F7
00041FC5
00FC0F8A
1EF80040
0203D07E
1FFC1079
00040F8C
01F82044
00001F84
0003FFC8
030FFF7C
0103EF85
051020F5
1EFC0FF6
1F03E03E
020800BB
01F81FC5
1E03EF89
1F000F8C
1D07E081
03000F82
01081FCE
051000BE
02080F4C
010BFF86
01000006
0207FFBA
1EF40FB7
0003E08A
1DF840BC
1EFC0082
1F0BE00A
00FC0009
0003F0BC
1FFC103A
1FFC10B8
1BEFDF46
0003E002
1FF82081
1EFC000D
0203E078
00FC0F94
02100F7C
0200000F
04180FC7
02080FBA
19EC003E
1E082FBE
1CFBE004
1DF01FBD
1EFBF00F
030BF039
1FFC0FD0
1FFBEFC2
1AF41FB8
0103F00C
0208607A
1FFFF04A
1AF0117A
0004104E
04140076
00FBEF89
1AE3E000
00FC1005
04102077
1E043FC6
00001012
1BEBEFBC
01FBE07F
1EFC0038
1FF0004E
1FFC603E
19D86F43
1DFBE04B
01FC403C
0007EFC9
1AEBF0F7
1DF7EFBC
1EFC107B
1CF02FF5
1DF81044
00FC1F89
0307EF89
1E03D002
00001041
0103F019
1DFBA03C
1EFC0005
03041F86
01FFFFCC
020BF03F
1EF0007A
1F03C048
1EF81033
1DF00041
1CFFEFCF
1FF80007
0103E0BF
1FFC2F3D
01102FF6
1C03FFC9
00FFF040
1CF46087
1EF81007
1FFFF0BF
1FFC0013
1F007FB8
02F81012
04100009
1E000FFD
1AE0113B
020C007B
1F040003
1CEBBF7B
1CF3D00A
0208103A
030BE044
01FC0FCA
01003076
0203F009
060C0FF5
01FBF04E
1AECE076
0003F04F
01FC0FB7
00FFF00C
1FF00042
00F81049
1E07E038
1F00100C
00040017
1F03EFBF
0B0C0FB5
0003DFFC
1CEFA048
1E00503C
00F7F00E
1CEC10C5
1FF7FFBF
1DFBD00A
1AEC0078
02FFFF76
1E0FE07A
1BF03FBA
0003B07B
01FC000C
0307D00A
03141EC0
1EFBE048
00FC0018
0007A03C
1FFC0FCA
0408104E
0107FFCC
1F03DFC2
0107F13B
0007D007
02001036
1F03DF46
1DFBF04D
0000104C
1E03C07E
1BF41FB9
00042079
1FFC0FC7
0313FFC0
19E8103F
1FFC2084
1CF8203E
00000054
1EFC0FBD
01FC1FD3
020BF003
1CEFE179
020C20B7
010400BC
1FFFD003
1EFBFFC1
1FFC1FC9
010C0FBA
0107F104
01001047
00000FFC
01000011
1CF02EB8
1DF7D109
1AE83037
1CFBF10D
00041FFD
00FC0053
01F80E3B
1EF3F107
1E079FF7
1F001084
01080012
1FF3FFC0
05040FF4
03080039
00FFE07D
00FC2001
00041050
1CF7FF46
0000403D
1FFFF047
1FFFDFBD
1F080079
1DF43F73
1EF7FF80
1CF7B000
00F7E04B
03041001
1F082003
1F03D043
01040052
1CF3C03D
00F810CB
04102108
0003D10D
0007F005
030C10F4
1F0BF102
1FFC2EF6
0004003D
000C004E
1EFBE006
0107D040
19EBF037
1CF3F27A
1F000046
030BFF05
00000F81
00FC2004
1FFBFF39
0003F094
01FC3001
02FC0013
01001004
1EF7D272
03042034
1EFC0FFA
1F03F0BE
01000FC5
00FFFFC9
1DF7F07C
010420C2
1EF400C9
1BFBDF3B
0208104F
01FC3FF7
1DF7F0BF
1CEBD03D
1DF00207
1FF4107E
01040013
1FE3ECFC
040830BA
0203FF33
000FF23F
0518104A
1EF7F03E
03001FF8
01FC0078
03103037
020C3003
0003F055
02041FBD
00FFF03E
1EF00185
0104103D
030410BE
1CF42FFB
00FBEFC9
1FFC1FFD
1FFC3F83
1FFC2F3D
000C2043
00FC1F84
0308204B
1FFBFFFC
1CEFE183
1F03E082
0103E309
1F00000A
00001EB7
0A240142
03042FF9
02FFEFFB
1E0BF086
1DFBEFC9
1AF4204C
1F003F73
1DE3EFF6
01080004
02040F85
0A13E038
1CFBE0BE
1EFFE176
1DEBFCCC
030C3137
020C0F89
1DF00FBF
040BE0B1
1D03EF81
01043032
03080046
040C2043
1F041088
00F81EEE
1EFC0011
00FBCFFC
040411F3
02083045
1EF3E0F5
01001051
01000FC9
1BD85AC6
1BE40FB5
00FC107E
1BE7D2FE
030C2FCA
1FFFF07E
1DF800B9
04140FC0
1F042080
0000003F
1FF8102F
01000FFC
01041009
1FFFE006
1FFFFFC6
1EFC3009
01002007
00F80FF5
03040078
00000002
1F03E0B3
1EFC0F3C
1AF81000
0004007E
1E14003C
1FF800BB
1F100F04
1EFC1048
1DF41D8A
19F00F3F
1FF40F02
04100FF8
1DE423FC
1FFBFFC3
1DF40FFA
1DF8103A
00FC0EC1
1CF41008
1FF80FB9
1F04103D
00F02007
1DF02CFE
1FFC3FC0
00FFD086
02081005
1DF40075
00FC1FD2
1EFFCFF9
1F000FCC
1F100FFF
030FFFB6
1FFFE0FD
1AF00FB6
0000004A
0203E0FD
1F001FCA
0204206E
1FFC0012
1DEFE07A
1DF01135
1CF82F4B
1FF3B0FD
00000FCA
1FF81FC7
1DFC4DC9
02F410F5
0007FFC1
1DE421C1
00002FC6
1CF3F076
1D03F03F
01042F89
00FC1082
1FF80078
0103E033
00FC0FCA
00F82041
1E0FE009
1F001FCA
1F04507F
0107F00B
0503E075
1EFFFFFA
00041FFF
0417F038
1CF00F80
1EF40FC6
06081008
1E0BF081
0103F03C
00040F8F
0308003E
00082F89
020BFF84
01FC1FC7
00F7DF41
00E40276
1DF7FFC8
1FF43078
1FFFD0BE
1CF3EF89
00040012
0100003C
1CF80038
04FC0FB7
000BE044
1BF3FF82
1DF3D081
1EFC0FCF
1CE800B9
1FFC1F8E
00FFDEFB
03080013
02102005
040BEFF8
1AF7F000
1DFC0FFD
1EF80082
1F03A040
1EF40F89
03041030
00002FCC
00FFFF83
1AF010F8
1FFC004D
00F43176
00FC104B
1EEC11B9
0103FFCC
0313F03A
1EF41F4D
01040FC2
00FC1007
03040F79
1F003003
01003FD1
00002FBD
020BE0B7
00002074
1DF4000D
00FFF0BD
1CF82F0E
1EFC1089
1EF41FFD
01FFEFC9
1FFBF074
1DF3BF79
1DF410BF
0307F078
030C207F
01000F81
08102FC2
030FC0C0
0207FFC1
01000FD0
1CFBC078
1F001FC7
03082FC2
00FFFF85
02000FC1
1BF00FF7
1F03EF4B
1CE80073
1EFBB000
1DFFF00C
0100100B
020FF07D
1E03E07A
020FFFB4
00000F46
0003CF40
1CF7E0BF
1FFBF008
1CF410F5
1FF81011
1FFBCFBB
1FFC104C
0207F00B
00041079
1EF7FFF8
1E041038
1F03F001
1EFBDF3E
1FFFFFCE
00001FF2
0413FF87
00F80FC4
1DF7F035
0007F006
1CF7D03A
01FC104E
19E420F9
0000104C
06141033
1FFC2FCD
1FF03F01
02F00049
1F03DFF7
00F81008
00043013
0000007C
0417EFF5
1CF43FF6
1DF7DFC1
0000207D
1DFC6F8B
1AEFE049
01FC5002
1FF8000A
19E3E0B5
1FF0207A
0107F080
01FFD080
1FFBE07D
01001005
041030BA
0104207F
0103E006
0100104E
0303DFFA
1F000009
010C2003
02000FC9
0107F002
00081F7A
0007FF8B
1EF81EF7
1BEC0043
1EFBE049
0303F089
0107C07B
1AF7FFFB
0413E073
1DF81FC3
1F002040
1F03BFC3
1DFBF009
1EF80078
00000050
1CFBCF7A
01FC0FCD
00000047
1CF7D039
1DF84FBC
1F07E136
0103F03C
1FF81004
0000100B
1FF3EFF4
04101086
02003046
1DF3FF78
1FFFF049
1BF81FBF
00F400CD
1DF7FFF9
00042003
01001077
1FFC004D
1DEC4D40
01F40003
000BD03B
1FF81081
00083050
1EF3DF83
02040FF5
01003039
1FFFDFC1
1CF83000
0100100B
1DF04F81
1EFC1FC0
02040048
1DF7FFF3
1FFBCFFA
1CFBF07D
1FF81FC1
1E03F1BD
1FFC1003
01000F80
00144FBC
1FFC00C3
01001052
02FBD0BF
1F0420C3
020C20C5
1FFC214A
00FFF007
1DEFFD76
000800C8
1EF00EF7
1EFC0042
0103E0C5
1FF8000F
0100103E
1AF7EFB9
000BF0F5
1F001FC4
00001046
04040F80
1DF3CF85
0203FFB2
1EFC0FD2
01FC0F38
01FC100E
02000004
1CF401B5
00002FB7
1DFFDFF2
01040FBA
02001006
0308004B
1DF80133
051FEFC4
1FF80085
1DFFFFB4
03080F86
1EF02FB8
0413F044
02F7F038
1FF82001
0207E034
01000052
1AD7DBBF
0104403D
000FD0BA
0217FFF5
01182107
1EF40FBB
01FC1FF5
04103FB5
060FF079
0103FFBC
01040015
0413FFF6
1FFBF002
01001183
0307F038
0203DFFD
1DF7EFFD
1EFFFF85
0003F0BA
1DF800C2
1CF83F7D
1E04307C
00FC0041
1FFC10CC
00000FBF
1CF3F386
0107D13F
1DE026CF
0000000D
17D7FCB8
03101104
05040FB3
1EFC1FF9
1DFFF043
1EFBE00C
1CF01006
1CF40F3D
1F003FF7
1F042002
00FC3085
07142001
02040081
1DF3EF35
01082F81
1DF7F0B9
04080007
1DF8003C
010020AE
1FFFF047
0007E0F1
04081FC4
03080004
1BF3EFC6
1EF3F0EF
00001009
1AEBE0BE
010820B9
00085EFD
00FFF035
0200100D
02083001
1EFBB240
1EF80FF5
02100004
1FFFF0FE
03002F4A
1E03F03D
1CEFF0F2
1EEBE0C5
00080004
02001FC0
1FF80073
0103F07C
01000009
1CFFE00B
1FFFFFC2
0007EFC8
0208004A
02040076
1FFC203B
1DF7F004
0317FFF6
00FC2FBC
000BFF00
0004203B
0227FFFE
02FBEF38
02080F00
1F040009
01003E82
1F080F45
1AE80001
04102076
1EF830F6
0003FFC1
1DF411BE
0203F033
01101FC1
1F07FF8D
02081038
021000B9
1EF40045
01042FBA
020C0FC6
00FFF042
1DF80004
1DF3F038
1E042FD0
02FFF076
0108200D
04141FF9
01FC0FB5
1EF8107F
1CF7D036
00040FC9
0203F000
1F001FC0
1FF800ED
0000000A
1BEFF07A
1F0BFFF6
00FC2FC6
1EFBD0BA
01001012
00000003
00082FC6
00FC0FF9
020C0046
1EFFFF80
00FC1FC3
1DEBF0BE
02081FFA
01041087
1DF41005
1FFC30BC
1F03EFF4
01040004
01040002
1BFBAFFF
01000001
1EF8103E
0103F007
040FF0B7
1FFC2FFE
1EFBF042
050C1FB7
0000403B
1E000FBF
1E001FC3
000FFFC6
02004EC2
1F000FCC
0100003A
00003F06
00100F82
1FF7F045
02101F03
1DF40235
1EFC0008
1FF80079
1EFFE07E
1E08000A
00001FD1
0104003D
00040076
010000F9
0107E03F
0003DF80
01FFE043
1BF4300E
1F000075
1FFC1011
02041038
1F00200F
0514203A
010BF036
19F00040
1EFBD038
00FC107F
02080FC2
1CF40F8D
1FF810AF
04081F89
0507B03E
1E080FB7
1F04004C
02FBD073
00F8104B
1BF01075
1EF4000A
06200034
1FFC100B
0007FF81
1FFC300C
00FC1039
04081F79
1F082F89
1FF840BF
1DF3C03E
1F000FF3
1DF7E009
1BF7DFC3
1BE80F85
1F001041
1CEC1081
0207F007
01FC0036
0003E07B
1FFBDFFF
01FC2FFE
1F002F7C
00001FFE
0000103F
0003F087
02042FC0
0104200E
1BF7BFFD
1DF83F87
0004007E
1DEC0008
03042FC6
02080076
1F03EFCA
1DF3B074
1EFBFFFE
1EFC000C
0100004C
0007EF80
1CFBF07B
00042FF6
01F42F45
071FF040
00038F84
1EF8404E
00FFEFF7
0000000D
0107D179
00F8000E
00080FC6
00002038
1EFFEFBC
020C2036
010C1039
1DF3F005
1FF81FCA
0103F070
05142FC5
01F83FFC
1CFBEF33
0104004B
000BFFFA
02000045
1FF42FB4
1DF8200D
00082073
00FC200E
01FBF042
00FC4089
1F001FFD
01001FC1
00104006
0104207D
1F07C037
00FFE0B3
1EF7FFC2
1EF3EFBD
00F41FCE
1DFC0042
1EFC1FC1
02000007
1FF80FFA
1CF400BD
01FFFFC2
0304107C
010C20BB
1F00103E
1DF44000
020810FE
00FFFFC5
0104000D
1FFFF03D
00043045
1FFC20BF
01040005
0107F008
0004003C
1FFC0FC8
1CEC3079
1EFC40B9
1DFBF08D
00F8008F
1F03D036
1CF8003E
0107F077
1DF42002
1D03D040
0003D001
1CF81008
1DFBFFF9
1E00100B
1DF39F78
1FFC000F
02080047
1F041038
1E00107D
1FFC307A
1F000FBB
1FFC0005
02042011
1EF7DFEA
020C3044
00F40005
0000006F
00040009
020FE038
01002008
0113EF79
00FC3085
030810B4
0000204E
1DEC0F3D
1CEC5188
000BFFFB
010800C0
02145048
01003FFC
0007F03D
00001035
1FFFF001
1AF3D03C
0100304A
1EFC0045
01FC0F46
040430C4
1CF7DFF8
01041038
1DF7D004
01040043
1EFFF076
01041083
0003E07E
1BEBF03B
1CF810FF
0004000D
1FF7FFC3
1DF00145
02080083
01FC210C
01000009
020BF036
02100F88
1FF01038
020BF003
01040048
1EF4000B
020BF07F
1C03F07E
1EFBF079
1FF84FC5
1BF44085
0107F005
1EFFCF8C
1FFBE034
02041049
1EF40FF1
01040054
0200003C
1EFC0F2F
00FC00B9
1AEC0F2F
1DF40077
0300000A
05080006
1BE80070
010400C4
1DFBF045
1FFBFF37
01FC1FC8
000FF039
00040FC6
05FFE0B5
0003EFBF
00FBFF77
1EFC004E
1EF3F000
1F002000
032400BB
001BE039
1FFFF048
00F80034
02042FF7
00FC3FF5
03080082
1CF7D03F
02001053
03082FBD
1F03E044
1FF010FF
01000FFE
020FF036
1D082FC5
0003F07F
1F00003B
00FC2180
1FFC3FFA
00FBFFBB
1FFC4040
00041049
01FC0002
19E4343F
1EFFF083
1DE42206
02041048
1CEBDF7B
021FE084
02000FF9
0104103B
000BF0C5
1EFBEFCC
020BE00A
1E03FFBF
1F001F3A
000C207F
1DEC10C8
040C1007
00F80004
1F03E035
1FFFE084
00F81135
1EFFF049
1FF81032
0108102D
1F07FFC9
1CF3E074
06081F83
02040FCA
1E03B005
01FC11EA
02082F82
1CFBE03F
030C107D
1E0830BD
1EF7D034
060C004A
0303F001
0313DF81
1D000038
071C2FFF
1FFBF03D
01041FC6
01000FF7
1EFC006D
0103EFC5
00081003
02FC003F
1BF42F36
0207F035
0103E00C
1E03EF4D
1D03E048
1EFFE00F
03000004
02042FF7
01081003
1EF41042
030BFFF9
1DFBE0FC
1EFC1F7C
1EF40074
051C2040
0107F07A
1EFFF03E
0004100C
01080FFB
1F081005
1FFC0F83
1EFBF03C
1EFC1FFB
1E0400FB
00FC20B7
0003F030
04202E8E
1D03F011
0508203A
0108007C
1FFC0086
1EFC0FB1
020C0048
1FF8007C
00001FC6
1CFBFFF3
1F084FCC
02FC2037
0608408C
01080034
1CFBFFF1
0103C07D
1AF3B0B8
01041049
0107F00D
1CF7E004
01FFF0F1
0204600C
02FFF03E
0007F077
1F044F83
1CF3D0BA
02040FCF
00FFFFFE
02081F84
1E041FFB
04081006
1FFC0001
01FC6F45
0107D0BA
1D0C1FB8
00041006
01080008
1EF8203E
1CF01FB7
1F03F009
0103F045
1BF3EFC3
1EFFEFCF
1CF80000
04081F83
040C5FF9
00041FFC
1DF3C041
080C1FF6
01042FBF
1CF0203C
1FF80040
050C0003
00F86F3F
1F080FC7
0007F03F
1F041009
00080004
00041FCA
04FC5EC3
1E00003E
1E001FC4
1CF3F07B
1BF7A03C
01080F53
03083FD7
04042FB9
021010FF
1EFC10F3
1EEC6FBF
00081007
0203E042
1BF45F92
02040F74
00002FCA
020BF039
05006012
03101FF3
1F001FF4
0103BF7A
1DF7C0BC
01001001
0004103F
0103FFC9
1FF3D131
060C300B
0203D0BA
1E03EFFA
1CF86FC8
1DF7D0F6
01FC2050
1EF7E0B0
1F080F86
1EFC0FFE
1CF3F049
01000004
1DFC8FCB
0207F039
05205FBA
0107FFC5
00082043
1DF7CFFA
0007F034
1EF3F043
1DFBD086
1EEFFF87
1F041FCB
1EF7B0C1
03083FC7
01000FB7
1EFC5FFE
000000BB
08081FFC
1E005FFD
0007FFFD
1FFBC001
0207F044
1CFC5FC5
1F03F011
1CFFEFBE
020C204B
1F03FFC2
1DF41FC7
05044F48
01040FC3
00001FC6
00FFFFF5
1EFBB07B
1F041016
02046013
00FFE03B
02042082
1FFFF0B5
1DF82F42
1DFBD00B
00F7CFC0
1FF84012
030410B5
0004200C
0107DF35
04002010
01042005
000FA033
0007DFC0
1DF3E075
0100003E
1AE7E004
03002F8D
1FF42032
090C5FC8
00FC5FC1
010BEFF3
1BF48FCC
00041039
01004085
1E03E030
02102FC4
1A041FFA
1DF44011
00000040
1EF46107
01001FC4
010C2FFF
1F000047
1FFBF045
1DFBD037
01040FF9
1CE8007C
1BF7C07F
02F81FCA
00040010
00FFB046
05040006
0503C03B
1AEFE07E
1CF400BD
060420BC
1E006FBB
0008103F
1DF4003C
030FF0BF
1BF4D00B
1F000011
1AFBD003
1F00508A
1EFFF041
1F041F83
01002FD3
1FF80040
1F04100D
00FBFF77
1EEFE07A
00041095
02FC204D
0007F03E
020C0083
1F03F039
18E9600A
1EFBF085
03FBE006
1FF4000D
01FFF034
1F042048
1DFBEF33
0400000B
030C2005
1D03CF71
1FFFDFFE
1AEFEFF7
01FFEFF6
1EFFEF81
0100004C
1BF03FEE
07083F87
0003FF83
010BFFEF
1EFC3089
0103FFFB
00F82089
0003F033
000FD083
1AF8103A
00F80011
0008107A
1AE42148
020C2044
010C0041
000BF042
030C0F82
1E00003A
1E00203A
0104203E
1AFBC000
1EF82050
1E04100B
01F81002
04FC0004
0207D03A
0107F03A
1EF7D042
04001001
01081034
1F0040FC
1EF7C07E
1E03EFBC
1F0470C1
0004000E
1F03EFC3
1F03F085
1E000007
00FFFFC5
0308304B
0004003D
1F081001
1FF7DFB4
02000003
1E04108D
1EF3E00C
03040003
1E00307F
1F000FF7
1AF4F0CB
0004118B
070C100C
1F03FF87
1CF3FFF1
01003FC5
03081FEB
05081053
0310307C
1FF80FF1
1EFBE07E
17E3DFB0
1EFFFFF4
0300204A
05082047
1DEFFFB4
02102005
02041083
02002F33
1F03E044
1E0FE03C
00FC0046
03FC0FF4
1EFBCFBD
1AFBDF7F
1FFC204D
1E001FBA
1CEFB043
0428007C
1F101FF6
00003005
02183FF8
03041FFB
1DFC2174
030C10B8
1E03E042
03002053
010C1FCA
0404100A
00F7C07E
03000002
1DFFE039
1CFFDFC5
02FBF000
02000FF4
1EF441BC
1DF7EFFA
01FBFFFA
040870FD
00041047
1F002045
0000007C
1F0C1004
04080FFD
040C3149
1E040FC4
0327F0BD
00FC0036
01FC0039
000FF18E
00F8000B
020C1004
1F001F80
1DF81F7C
1EF83079
00081010
09100FCE
00FBF007

